/**
  ******************************************************************************
  * @file    llie_data_params.c
  * @author  AST Embedded Analytics Research Platform
  * @date    2026-07-18T00:21:26+0700
  * @brief   AI Tool Automatic Code Generator for Embedded NN computing
  ******************************************************************************
  * Copyright (c) 2026 STMicroelectronics.
  * All rights reserved.
  *
  * This software is licensed under terms that can be found in the LICENSE file
  * in the root directory of this software component.
  * If no LICENSE file comes with this software, it is provided AS-IS.
  ******************************************************************************
  */

#include "llie_data_params.h"


/**  Activations Section  ****************************************************/
ai_handle g_llie_activations_table[1 + 2] = {
  AI_HANDLE_PTR(AI_MAGIC_MARKER),
  AI_HANDLE_PTR(NULL),
  AI_HANDLE_PTR(AI_MAGIC_MARKER),
};




/**  Weights Section  ********************************************************/
AI_ALIGNED(32)
const ai_u64 s_llie_weights_array_u64[743] = {
  0x3e19999a3f800000U, 0x40c000003f333333U, 0x3f80000040400000U, 0x0U,
  0x0U, 0x16dedc210032ff82U, 0x2921e6fff90a31U, 0xf514202427f40081U,
  0xdfedf100f02b2ed6U, 0x160bb73c6d2ad222U, 0x3169d148f13d1673U, 0x31d17f07d109fdc0U,
  0xfa271165f31c4326U, 0x1e1efb35e804fa3cU, 0xde43c406520ff4faU, 0xf723deefec0b7f4aU,
  0xf80f353ad3ecc918U, 0xd309b1f6c681b9f6U, 0xbc9fcdda0c5f210U, 0x8122add5abd198a8U,
  0xa42429dffa241229U, 0x2bebe6aee7bff1eaU, 0x21a7a801ecbbc902U, 0x813469e4a740b55dU,
  0xc43a910fadc7e875U, 0xe9cefdf7cb50dd0dU, 0xc62cd4ee4f13932eU, 0x5781e8458111f4a6U,
  0xa0eb083388552c09U, 0xf2fd1e27ca04fc15U, 0x25457f2be5451ed3U, 0xe212dbfbfbd92205U,
  0xe91131ef41e11cf7U, 0xc8c3ed1936f50631U, 0xfd9e7e9fea081feU, 0xe52965ccee19e7eeU,
  0xbdbdf028ac0cb0daU, 0x96fa4912e5f081c9U, 0xd808280b112069f1U, 0xe7ccd72acd25d005U,
  0x8125e4d4290edc3bU, 0x1c27edf0d4cbf3e2U, 0x122406000a23faadU, 0x4d152811ea206afcU,
  0xf8b93df5057fe8f1U, 0xd694b1e57c8f30fU, 0xffffde89fffffcdbU, 0x270bffffe49cU,
  0x1800000039f5U, 0xfffff0c700001942U, 0x1fc400001043U, 0xffffd46d00001734U,
  0xc84430cf1ae098b3U, 0x2cc908c27f2c8881U, 0x4ae2931953da5d15U, 0x164704a2259481e1U,
  0xf1f2c9b8f8e1bb45U, 0x5b10a2b0ea202febU, 0x175a594b747f4481U, 0x7fd6cca3a3c61dd4U,
  0xd481bb777f5b11f8U, 0x29451ff7f7a5b51eU, 0xee6d5c96901b914U, 0x5cf97f0b5d7f7fdbU,
  0x210c658122e2b9a2U, 0x2956f3af25deU, 0x15b800002032U, 0x12a0ffffe88dU,
  0xffffdb30ffffcdfcU, 0x350ffffe1bcU, 0x17810000190dU, 0x6b9349c0fffff119U,
  0x7f0e6cee08ec05cdU, 0x89ec816a60949c48U, 0xb8197ff0292e1b95U, 0xc3a3bc24b22117d1U,
  0x34befb57637f6d68U, 0xcd3dc4315c59ecbU, 0x27097f65e448b0acU, 0xf8de4c4ff0d1dc01U,
  0xb59f597f7f24e515U, 0x86b7970a85f1cde3U, 0x4de257f0e25e846eU, 0xd3473b3f113c887fU,
  0x5487ea81e85765cfU, 0x5e5b1c7f20dee8a0U, 0xa5df3ed82fecc37fU, 0x93e874407f11f83cU,
  0x94bed29db18f9f81U, 0xc8b447e2df7222e1U, 0xab3080e7f268b50U, 0xa8ed1f897f4a4236U,
  0xa88e40c007339becU, 0xb27f7854e2b697f1U, 0x6c02dfe829407fe5U, 0x28d4aa07d3a6e8d4U,
  0xbad0710cc4b83181U, 0x3e508117d2a4ceb7U, 0xab72b7eae719c58aU, 0x6aee9ad07320107fU,
  0xec36294155811191U, 0x4288347e2a04b637U, 0x29c83065ff81de06U, 0x7f11ce8acc895cadU,
  0x7fc9653a4a277cfbU, 0x3333941b9bcce141U, 0x437fae284a0f24c9U, 0xfffff2c1cec599fdU,
  0xfca000004fcU, 0xfffff648ffffee36U, 0x23b1fffff561U, 0x7ffffff403U,
  0xfffff6acffffeb79U, 0x36e000026b8U, 0x9ecfffffe72U, 0x1194ffffffa2U,
  0xfffff99a0000153fU, 0xfffffcf5fffffa54U, 0xfffff68effffff95U, 0x7f3954f7ffffff39U,
  0x8364c38a9f1c33cdU, 0x7e4596b055436e97U, 0xd649d1ca73402138U, 0xbb6a0bca213354baU,
  0xb6f0eef87faa4e10U, 0x281479c99e3050dbU, 0xa0f24b7fbb8d7b8U, 0x4551c3bb0b2cdc11U,
  0xa33ec3296edb7fbbU, 0x4abc2f02699df0deU, 0x2bc2c57f290fb8e9U, 0x68d2765403322a01U,
  0xc24d0bdfb1947f65U, 0x6b92b7beee5ad132U, 0xbcd3a216cd29ed96U, 0xc21a5566f90ccec8U,
  0x7f4d10323abf6088U, 0x29544ecce45c9efcU, 0xe4d805fd7f0aa923U, 0x2f0f29480133f641U,
  0xdae41d94cc4e6b6cU, 0xd5d5b1c9d645efe5U, 0x4841ce80c693a6dU, 0xd84d23547fa8bfdeU,
  0xfeca2ab306d222d3U, 0xe47f23db28d7ed63U, 0xf44d0aa5ebf9d1afU, 0x96940ee5dce7babeU,
  0xbdf90319fb9e2f81U, 0xd38103b21928b5d8U, 0x253fea10e4336fedU, 0x646136d5f464b432U,
  0x189afe8c3f11ec2dU, 0xc27fa8f204e8d44aU, 0x29beca4db60cf51cU, 0xffffe024cfcfded3U,
  0xfffff857ffffff85U, 0xfffff978fffffcddU, 0xffffd72dfffffdf5U, 0x1b300000efbU,
  0xffffe97000002d8bU, 0x7f083a0700001a34U, 0x137afd6127fe8ceU, 0xb56f5abf56815ef0U,
  0x13d45bfcdc2c21e5U, 0x13f53ec1f3d00042U, 0xa55ee0e128b981f0U, 0xe261d1e6c908be93U,
  0x8181280456ced1b4U, 0x8120da8cbb999ae4U, 0x6dcbb8fcbe2b784bU, 0x3a02237fcf678144U,
  0x9c76a78112824f10U, 0x39aa0181d522ec45U, 0x10197fbfbc3414a3U, 0xc900000efaU,
  0xfffff2fe00001f5dU, 0x16a500001df2U, 0x194bfffff1adU, 0xfffff238ffffffefU,
  0xa18fffffc01U, 0x9109c7df283a2adeU, 0x6e812c616766936fU, 0xb0cc180a0a7886d6U,
  0x81c4bb19bb0ff7e9U, 0x16c1013168b5f940U, 0x2b6c142262af3757U, 0x16e8afaae8b17f93U,
  0xfc6be747354d21ddU, 0xed03e9e1dfbd331dU, 0x98aabb6555d36627U, 0x7bd4e5b6d706e6bbU,
  0xad7f4859143e86cfU, 0xf455ea4f74b27f21U, 0x737bde1eaa22268bU, 0xd95e4e45074ea145U,
  0xe212e7d2281b30f3U, 0x81d930e5cda61167U, 0xe72137e650def7f4U, 0x30ad697fc19c6f31U,
  0x4d9b4cd71203a1eeU, 0xd718e6ae4d0a3243U, 0x2d605030b22340c4U, 0xf26b8814b5c0554U,
  0xbd734cc458f3d9ccU, 0xc757fd2957380e2eU, 0xf82af581019820d5U, 0x2ead51ae551eb382U,
  0xd74f0c3e3ba7577fU, 0x2ee803123f05c7d1U, 0xd452031ed7f8f693U, 0xea73fb7090f34deU,
  0x7f04485eb5b7c428U, 0x2c4202362b279cefU, 0xe4aaf478d33ba03eU, 0x1d3e5b7137e981f0U,
  0xeac3a2deb7cd3be6U, 0x3cc2e3a9ebc4d288U, 0x37e0eabce9bdebf3U, 0xebeb81ee9ae87826U,
  0xca7f103862d8ecU, 0xdcd50ad82cc5302eU, 0xbdfa01d40d25b0c6U, 0xa15e06fb950e681cU,
  0xf252edb7bee31e8aU, 0x158149f706195a5cU, 0x81b06d14ea09370dU, 0xb8d541cf3c24deefU,
  0x7e32e7f5bda28da3U, 0x3d45811cb5400e6aU, 0x64ff454852d22027U, 0x7c4b0438f64f4847U,
  0x3b40b02828e0be11U, 0xfbe1df2a9ecff7b0U, 0x1d3b104975377fdfU, 0xcb622b35fac7b881U,
  0xe1644a2c8e97b1b8U, 0x2ef2f8e530d7c9eaU, 0xf1db26d1dd2ce1cdU, 0x5c430f092f8101a3U,
  0xc930a5fa39d135f7U, 0x1fbf0aba7fded9c4U, 0x3b13142317ed3a19U, 0xda75fd0edd67d3c1U,
  0x8136f3543b20e1b2U, 0xc1c43accb82a1525U, 0x7e53009214512a6U, 0x81e0a83e8e5fb207U,
  0xc42ac0539256a933U, 0x55b0d8a5453400cfU, 0x1b497fa21fb6f537U, 0x6f3819cded4bb5f8U,
  0xf2874d921294f21dU, 0xfffff55400000320U, 0x4290000019aU, 0x4e9ffffd8efU,
  0xffffe2aaffffea7dU, 0xfffff5120000082cU, 0x7ebfffff599U, 0x28900002c3aU,
  0x123bfffff98bU, 0xfffff2b3ffffcbe8U, 0x9e000001786U, 0x6dbfffffde2U,
  0xfffffd0d000010f4U, 0xcd1b291ac6a37f58U, 0xe4531737d1712e88U, 0x8d4f2cdc475465f3U,
  0xbad74309d53ce33cU, 0x6bd2c71e9f7f68ccU, 0x50c8f126ff01fb42U, 0x5b0237543ddc0f0aU,
  0xe61764cc494e1a16U, 0xf281c2c36528c54eU, 0xbb3e342f5221eba3U, 0xb7a1ad05fc7f17afU,
  0x332df6040c92eb5fU, 0xb7055f9789e8b0aaU, 0xdf4884cada7fc796U, 0xb615b67713e6dde1U,
  0x759ab4ef7cf87fbcU, 0x9e0cc54127194687U, 0xff55b2e8eb1e65bdU, 0xd2413fc4db4e13f8U,
  0xd22890480e351081U, 0x15ba9ad1291f4336U, 0x418498a6c40b41dU, 0x12af2b4d7f32786dU,
  0x527da8af1d112eb6U, 0x6b39ec37f6e6c938U, 0xa97f110da905ffcfU, 0x3f9e3c392cd69c48U,
  0x10b9b159eba8d4c5U, 0xd51bd7accb3ae91eU, 0xca24c74d527fd7fU, 0xfd228553bbb03781U,
  0xbfb27b182a17e747U, 0x58cbe0cf019dc03cU, 0xd9e7182d414b1481U, 0xa753dcf69cabc04U,
  0x60f7e5aa27e882c8U, 0xffffeee0ffffea7fU, 0xa90ffffdbb1U, 0x319000051d7U,
  0xffffafb30000110fU, 0x1623ffffffd8U, 0xfffff94700000ec0U, 0xdcf8067f84b51574U,
  0x3ede3251aeb0ec0U, 0xd17145c22ec78114U, 0x29acbdfd6c4ca5bU, 0xdaef457f0ac308eaU,
  0xf77f7fee47e13026U, 0x7f500e461b7fe125U, 0xe0d781b2040f270fU, 0xf83b653735177337U,
  0xfb026a6481b6efa3U, 0xe4e3bce51145e481U, 0xcf3f37cd2ecebce4U, 0xe081cd3ac7c2d8d8U,
  0xfffff43281391dfcU, 0xe1d00000bbfU, 0xffffe80f000017b7U, 0x1348ffffff5fU,
  0xcaafffff1b8U, 0xffffeb3cfffff11dU, 0xeb32b27300000bebU, 0x8800ec37abbd742eU,
  0x7df73af6d2de017fU, 0x7382bde0542d8e2U, 0x3b590c2316121f37U, 0xe3502c3481300430U,
  0xe3f9b8341cd929bcU, 0x9bf87f40324ab365U, 0x446dc1fa9214f140U, 0x4961f8dde0a2613cU,
  0xbcfd6d7fcfa2057aU, 0x45d70e3c0d6ebc8dU, 0x66bd400fa0b71d15U, 0x9372f1e1f1b28881U,
  0xf0a2f84b59e4ce25U, 0x28e0295a424738b6U, 0x23cdadd530816fd0U, 0x6bfaffbd0504307aU,
  0xd2fdc0dfb3e0a71dU, 0xb6fcf9f1818e3068U, 0xda8c101faf89a633U, 0x91fd8ff84b0dcea9U,
  0x97e48619f07f12c2U, 0xb8344a767b045c61U, 0x1491cbacbd318acdU, 0xfb555ee7bd2aacedU,
  0x81c2cf073a12ebb5U, 0xe7cdd8088ed907deU, 0x9fe41e13f636580fU, 0x4920050e8103badfU,
  0xce0db78e42d11410U, 0x318e41bcc694896U, 0xeefe1c43849b087fU, 0x10f75e4827bfc1aeU,
  0xcbd7a52a1c263c6fU, 0x14325f17f0c4370U, 0xf8d11385f3c3e7c1U, 0xb3623d03bdbbf9efU,
  0xab81ccfedfd7c704U, 0x12fbe09ed4e23238U, 0x2ce807b1c921c5ffU, 0x21e329813ea9de12U,
  0xf1e54763ca2da8c9U, 0x309c439181190429U, 0x952df5fbfd4a1b07U, 0x43e7e4ed3becba5fU,
  0xb5314051c4ba0337U, 0xbd7fd3146d57273aU, 0xa5815193b2ceae54U, 0xdf4beee99ddc205dU,
  0x71bbde5430d1a2c8U, 0xdd3d0339d2d4d8d3U, 0x8a3a781e0b2d847U, 0xb67f19ce55c00806U,
  0x7fa29a4bf2693c15U, 0x91036678cffb570dU, 0xbff9314a0410dc1fU, 0xfba3f13b36b33d0cU,
  0xb50bd246e0364381U, 0xfc461dc4f32e282cU, 0x2709f81a5a031fc9U, 0x1fbe81e0bd307702U,
  0x15eb0be68215fe26U, 0xb31125634dae03cU, 0x4d22bd81f85d536aU, 0x13471003021646e7U,
  0xaa14587f13cc9e3dU, 0x28bd7cbe1386a1ddU, 0xc2092b13c336ca4fU, 0x94eebbc7ded1560U,
  0xfdbcf27c390feb4U, 0xd640e9fa81afcc15U, 0xfffff17a9ec1bf86U, 0xfffff1fdffffe4a8U,
  0x9fbfffff67eU, 0x274dfffffeedU, 0x2752fffffc1fU, 0x125b000000aaU,
  0x26c0ffffe21eU, 0xfffff73900001faeU, 0x1d18fffff69fU, 0xffffeefd0000008fU,
  0x2a5fffff781U, 0xfffff859ffffdf27U, 0x47a495fa00003430U, 0xffa6b39e5d15d6f8U,
  0xc14d951a75881cdU, 0x5b4a0399c2cc6eb2U, 0x8ccfaf3df57fbb0dU, 0xe0230aa81ace1457U,
  0x247f59fa8c13c214U, 0xbd7d57f9f5245c48U, 0x202acb248d0eb90aU, 0xf33f6c7f9a2e24baU,
  0x60d02a1c28f5cc24U, 0xdb48523d4e2e55dfU, 0x36935b55e82c1b37U, 0x19bdcfbaf59abd93U,
  0xdcb134831310ea81U, 0x55d32a02a935cce2U, 0xea08af2de8b6f8caU, 0xb8476af5677f4136U,
  0x81eef6600ffba1c8U, 0x66d4b8ebe5db12b0U, 0xf430169f0b079e15U, 0x5d755aaab43c224U,
  0x2e46fa661e8fa439U, 0x14814a134945e031U, 0xe9b2ecff680edce1U, 0xce484e94f57f9115U,
  0x2500334706d49e3aU, 0xf5b39bd80ff61654U, 0xdaca05d2b3187fb2U, 0xed6043565d2ae6a9U,
  0xad3d5e71eb901caU, 0x3ac59f2c16af4a30U, 0x3d307fe37b2055cdU, 0x13f3494747c6d3bfU,
  0xbfe31a44ebb444dbU, 0x10e8eb7f569b49cfU, 0x64daec586026U, 0xffffe420000028fdU,
  0x658cffff7fccU, 0x2d94ffffe49dU, 0x824ffffd284U, 0xffffd64500002075U,
  0x792c9d7fffffcaa2U, 0x2db8811394db7fdfU, 0x1b4eecf354814470U, 0x7fb77ffc2f270609U,
  0x3691a54370e039d1U, 0x7fbc55fc15f6b373U, 0xf1f7c2a70847020bU, 0x416b38814b81322fU,
  0x9b6716eaabcd0eecU, 0x76f788143f1bfa1fU, 0xad0d432bd1600c6U, 0x497b2ccd53afc0f9U,
  0xd2f31ad7ef81e630U, 0x7f22c1468b321381U, 0xf5dffffec1cU, 0xffffe75100001a35U,
  0xffffda3400001931U, 0xfffffdf4fffff714U, 0x1958fffff2d8U, 0xffffdfc100000780U,
  0x9b48c4e835c15f6dU, 0xa4e4ee293081274cU, 0xab16f10ceb00fbf3U, 0xf84140ea5f292aabU,
  0x468af281233935ddU, 0x70da79570fa73828U, 0xeca84ef2fdd7d5e2U, 0xf22bdf03a8e06581U,
  0x52e328d6e9c0f72dU, 0x1009d61ccb00d55aU, 0xb07f0e4fb189c8d2U, 0x470c2a9c1ef8bff6U,
  0x47ac3de5da565fe1U, 0x3f2fb32bd9bf4edcU, 0xfb05e335f3f8b87fU, 0xf33e0e5ada548bb5U,
  0x54a24fae568406faU, 0x7a0f1ac8f764e97fU, 0x6b50ef3e5c34768fU, 0xfbe94f4b396c01bdU,
  0x6ead81c69c0950c1U, 0x3fdf6bf4c9d546a9U, 0xbfcb3ceb1867f46U, 0xa50bcc4395a2596fU,
  0xe7c5c73b51c325d4U, 0x3c20cab1ac7adef5U, 0xd381c3b811a760b6U, 0x7f02d2ba4be753aeU,
  0xf2b8294e421925d6U, 0xa6316ff11714116fU, 0xe5d7f4eba20387bcU, 0xb0bd3d5ea37f28efU,
  0xcea1415ccd2d0b4eU, 0x9d68815cb8ea00f8U, 0x3e9fdd6646a8c8efU, 0xb5c0049feb540cf6U,
  0x73b1ff531d7fbe05U, 0x2a289b45ae5aeb14U, 0xcdfe3b6bc8d94588U, 0xf82a78b53e55adb3U,
  0x160af3887f48d726U, 0xf02201122c09b3bfU, 0xaa38b2d74941f01dU, 0x7f8de700c014586fU,
  0xe2fe9fe904ddc297U, 0x9a268159f7425867U, 0x9b420e63b12e9a4bU, 0xf298a8c005b2bd2bU,
  0xc74fc4d1ec337929U, 0xf514daecf381ad07U, 0xddcbd632f21bf4fdU, 0xf658c3ba19640a17U,
  0xa90f094add81e3deU, 0xb9e4f8f5de1f1856U, 0xfbb2da2982f0df53U, 0x8138f4b930b401a8U,
  0x9751570006e9323eU, 0xafbb54e2dccb9d81U, 0xf1abc9ca1a75dfa5U, 0xbc329ccbd83c5607U,
  0xad16a509153cf218U, 0xefb098b8c82609f8U, 0x513b7f7ddbd70dc9U, 0xbfd43c363aa5c9b8U,
  0x591ee4c91c9f817bU, 0xdaf336f761299804U, 0xf3f435c1a156441dU, 0xb801c638c7a07fc6U,
  0xb5dde0ec5d5bcfecU, 0x1cc1150d3df120b7U, 0xccef1d01132b1381U, 0xe51bd011df1c4c8bU,
  0xffffe7720000052cU, 0xd31000015bbU, 0xfffff241fffff276U, 0x3ccffffe877U,
  0xffffe49c00001fbeU, 0x18d500000a2eU, 0xfffffb77ffffeb70U, 0x114100000be8U,
  0x72000001190U, 0x2acf000013faU, 0xcad000002ecU, 0xeca000007a0U,
  0xdac53140293a6978U, 0xf462374321ef32dcU, 0xf27fc2052755fd44U, 0xf0f4089cfaacaa23U,
  0xed2ad214bca26a30U, 0x200dde09c7ddae0aU, 0x1127d6f2413c810dU, 0xa4fbc8b45606deb3U,
  0xc3268101bb483ec1U, 0xfc6c18b85062caeaU, 0x276fa6272bfbe5f1U, 0x903a60bf4a2578c4U,
  0xf5461f450881c1a4U, 0x5dc2523a4209cf0U, 0x3da9e8ad812c7e24U, 0x1cf5a8cc67fac8b1U,
  0x49aa934ea041f95bU, 0xd4632b7f5e9b38f9U, 0x7db8200db362ad7U, 0xc9defa1725f49be4U,
  0xe8ddd5324f05b646U, 0x787f3d37d1abb520U, 0xf9af18360abdb0bbU, 0x17f57f8ac700e6b4U,
  0x2d3910432e4d2a1eU, 0xf6421fbd0a462fa8U, 0x6532d4dabd94405eU, 0x44f0b0f734a739f6U,
  0x2807030a7f2a1f81U, 0xfeb56e8999a40ebbU, 0x52fb8a77b4275224U, 0x2f6e43f09cbae51U,
  0xe2aedb8105170e2dU, 0xdbcec2d2cdf3d419U, 0xe03d0d22322d1721U, 0x385333f81bd5b363U,
  0x7f0dd706fda3e669U, 0xd435d7314b3c3febU, 0x73f31c7ba4757fcdU, 0x3f65ebd80a48ed24U,
  0xf9fcb9cacf1c08faU, 0x513218db3a2766dbU, 0x413a5d41428105eeU, 0xdc0d43a7180f2e4dU,
  0xf710dd4b3fdadce6U, 0x16c9034deaedfc11U, 0x5a81bc05294affc4U, 0xe82db255415dc3deU,
  0x2006faa4f985d4bU, 0x8ddf9b7f5ab722daU, 0x3a087006de52f850U, 0x5733058d7fe03519U,
  0xf01cb51f37d92aafU, 0xfe23d021141528fdU, 0xe51b0fd515fb2512U, 0x10ebc2a12d6b311U,
  0x6a9f15bed6f58136U, 0x3e3879cd218b2ce5U, 0x9ba78a1a24bc3ff7U, 0x4d1c45c47f81b419U,
  0x1dcdf15ccf474215U, 0xcaa7f602f83fafb6U, 0xc0f1f5cefb826c08U, 0x3430e8f3f033a13bU,
  0x10fdf1a9cb36f5bdU, 0xb334f17f5b3df3bcU, 0xebfeb33be8347f28U, 0x4bef3bec07c0dd88U,
  0xb873cfb8c54f600eU, 0x64ce1f7f7761ba1eU, 0xd50b121ac8dc11edU, 0x908bde9748e300e2U,
  0x7748e16a1b3d6b10U, 0xec379ed4eef9a999U, 0x7522fb2f915e8105U, 0x5472ffff7432U,
  0xffffffdd000026b4U, 0xfffffe78ffffff0bU, 0xffffe1e900001ac2U, 0x11f00000f09U,
  0xffff84b2000047b3U, 0xffffbd65ffff9b6bU, 0xffffe3f3000013a2U, 0x7efffffa781U,
  0x5dc00004b53U, 0x1a9b0000051fU, 0xfffff42ffffff22dU, 0x25008c41812ceedbU,
  0x1346c33ed76bb80aU, 0x59f63664d6fe42f0U, 0x15813fa77ab2e2e3U, 0x9dcca9d5166410afU,
  0xbdc795073940b552U, 0x62ba2eee7f01c02cU, 0xcb99440ca7eefbfaU, 0xa6f153c8170eff34U,
  0xeb8a2fe40c0c8149U, 0x246b0642b8103bcdU, 0x8f256ff3dfe04fcdU, 0xffcfc1b8ece252deU,
  0x16ba1f30e6417f50U, 0xec030afc08dd43daU, 0x7f794cd81c54638U, 0x6dbedc40b13edf0U,
  0xc0f3d62d09a50fbeU, 0xc605a73e12d4362aU, 0x3bceb541a9f958ffU, 0x41e7f98223f97f4bU,
  0xd78a52d87d1b15a5U, 0xeccc8134c111fd11U, 0x9ee8bb1844d98791U, 0x1081e7af0fc89aa9U,
  0x20709d04b28a0f2U, 0x1b5cabc0a56b92fU, 0x5e145982b3dc81c9U, 0x24d829d607a9a2c6U,
  0xb101d9e0d35ae767U, 0x273ea4f02fd2a8afU, 0x1d02794ac590be0U, 0x49e681dee66512c4U,
  0xeaf3e200d34a0191U, 0x939835e926ef0e81U, 0xc687b39c53c1c090U, 0x351cfffffa65U,
  0xc4700000b37U, 0x3a52fffffd46U, 0x3a07fffff694U, 0x3f1a00004470U,
  0x4ebb0000210eU, 0x59361df54712c105U, 0x44c5bc10387f4e15U, 0xd8640c7fbd0e18fbU,
  0x32002cde8116e095U, 0xad352fc3a5bd9dc6U, 0xc21dacf3f0101b7fU, 0xac81c9e39625d62dU,
  0xf0d9d07ff43af1dcU, 0x8babde86307938f6U, 0xfffff49affffc73cU, 0xfffffce600003b71U,
  0xed4000031feU, 0x81554e0e2f40ef26U, 0x77a78b4e18f512e6U, 0xef0639fe87437f7U,
  0xa964da7f85f61691U, 0x194bdc3b06211481U, 0xf71f7fafe47f3becU, 0x7fe42b2e0424U,
  0x31ebffffc77cU, 0xffffe09c00000feaU, 0xffffdaf8fffff5d0U, 0xfc0063e66eabb2c7U,
  0x8927c7a0a6627fc1U, 0x5f24dd2eb811f29U, 0x69630da236b0ffdU, 0x748151f981eff503U,
  0x105b0f19fa063fd0U, 0xfcfc38321f43f6cfU, 0xe8a1ee07f0d77f10U, 0x3b7f21db5ad2a6e1U,
  0xc62622ec390dedc9U, 0xff26cf8158f97ff4U, 0xa7dfcb0af524b54cU, 0x34a849fc4925ca81U,
  0x9cd181be59b2aa50U, 0x7b05b8e525f4c431U, 0x2cd1815325a2a7b9U, 0x6b0f455391d1bfaU,
  0x4236ff33a17ffd1cU, 0x1f4ffffffe95U, 0xffffed9400000967U, 0x444fffff145U,
  0x2368fffff609U, 0x20e400000da7U, 0xffffebb8000016f7U, 0x7fd5026b4b193a1bU,
  0xcc7f143c0f164ffcU, 0xf0604a48546e180aU, 0x7f49434bf2672305U, 0xb12be056f45U,
  0x15a000000b90U, 0x3cf97ff9de0b2531U, 0x402b7d05ed7b4f1cU, 0xc97f447b2c006befU,
  0x360372313c1d7ff0U, 0xcf6e32c2924U, 0x7c300001029U,
};


ai_handle g_llie_weights_table[1 + 2] = {
  AI_HANDLE_PTR(AI_MAGIC_MARKER),
  AI_HANDLE_PTR(s_llie_weights_array_u64),
  AI_HANDLE_PTR(AI_MAGIC_MARKER),
};

